<pad>	0
<unk>	0
<s>	0
</s>	0
he	-0
▁t	-1
▁a	-2
▁s	-3
▁w	-4
nd	-5
▁the	-6
ed	-7
▁and	-8
▁to	-9
▁b	-10
in	-11
▁h	-12
▁wa	-13
re	-14
ou	-15
▁f	-16
it	-17
▁T	-18
▁l	-19
▁c	-20
▁d	-21
er	-22
▁he	-23
▁m	-24
▁p	-25
▁was	-26
om	-27
▁o	-28
ay	-29
▁The	-30
ar	-31
is	-32
ing	-33
il	-34
▁g	-35
id	-36
▁S	-37
at	-38
en	-39
▁n	-40
▁sa	-41
▁ha	-42
an	-43
im	-44
or	-45
on	-46
▁it	-47
▁th	-48
▁H	-49
ll	-50
▁"	-51
le	-52
▁her	-53
ot	-54
et	-55
▁She	-56
ir	-57
▁He	-58
▁They	-59
es	-60
▁in	-61
ver	-62
ut	-63
ow	-64
ck	-65
▁L	-66
▁e	-67
▁u	-68
▁y	-69
ld	-70
oo	-71
▁said	-72
ily	-73
ig	-74
▁r	-75
▁be	-76
▁I	-77
am	-78
▁st	-79
ce	-80
ke	-81
▁she	-82
ve	-83
pp	-84
ith	-85
▁with	-86
▁O	-87
▁On	-88
▁on	-89
▁Lily	-90
▁you	-91
▁of	-92
ked	-93
ri	-94
▁his	-95
▁so	-96
nt	-97
▁pl	-98
ad	-99
▁B	-100
very	-101
▁day	-102
▁that	-103
▁up	-104
▁play	-105
▁had	-106
st	-107
▁they	-108
▁we	-109
▁mom	-110
▁M	-111
▁for	-112
el	-113
un	-114
ould	-115
my	-116
▁li	-117
ch	-118
ent	-119
▁happ	-120
▁want	-121
itt	-122
▁sh	-123
out	-124
her	-125
▁do	-126
ly	-127
▁not	-128
ome	-129
se	-130
▁very	-131
ound	-132
all	-133
end	-134
▁wh	-135
ime	-136
ittle	-137
▁k	-138
▁time	-139
▁little	-140
al	-141
▁there	-142
▁A	-143
▁ne	-144
ht	-145
▁re	-146
▁happy	-147
▁sm	-148
▁It	-149
▁big	-150
▁is	-151
▁but	-152
ack	-153
▁an	-154
▁saw	-155
ry	-156
."	-157
riend	-158
▁as	-159
▁friend	-160
ra	-161
ide	-162
▁One	-163
ake	-164
!"	-165
ug	-166
▁Tim	-167
▁loo	-168
ved	-169
ter	-170
▁were	-171
ore	-172
▁lo	-173
▁Once	-174
▁J	-175
ec	-176
▁him	-177
▁too	-178
▁go	-179
▁bo	-180
▁se	-181
irl	-182
▁are	-183
▁j	-184
ard	-185
▁wanted	-186
ill	-187
▁upon	-188
▁girl	-189
▁out	-190
▁them	-191
▁Tom	-192
▁at	-193
ind	-194
ur	-195
▁their	-196
fu	-197
▁sp	-198
way	-199
▁Ben	-200
▁smil	-201
▁did	-202
▁could	-203
hen	-204
▁have	-205
ain	-206
art	-207
▁ex	-208
hed	-209
rom	-210
▁went	-211
▁ar	-212
▁can	-213
ic	-214
▁W	-215
lp	-216
ful	-217
ood	-218
?"	-219
hing	-220
▁friends	-221
▁nam	-222
▁But	-223
ight	-224
▁all	-225
▁help	-226
▁kn	-227
um	-228
ark	-229
one	-230
▁back	-231
▁say	-232
You	-233
▁cl	-234
▁fun	-235
are	-236
▁no	-237
▁le	-238
op	-239
▁Timmy	-240
▁smiled	-241
▁named	-242
▁sc	-243
▁al	-244
oug	-245
▁loved	-246
side	-247
elt	-248
▁man	-249
▁asked	-250
ick	-251
▁toy	-252
▁like	-253
▁fe	-254
▁felt	-255
▁looked	-256
▁some	-257
▁around	-258
▁see	-259
▁me	-260
ame	-261
omet	-262
▁br	-263
▁ro	-264
ure	-265
▁bir	-266
get	-267
ice	-268
▁boy	-269
▁would	-270
▁start	-271
ong	-272
ss	-273
▁somet	-274
▁bird	-275
▁fa	-276
dd	-277
ings	-278
▁wor	-279
▁ag	-280
▁what	-281
▁make	-282
ade	-283
▁Mom	-284
king	-285
ie	-286
own	-287
,"	-288
▁tre	-289
▁You	-290
▁ran	-291
gether	-292
▁away	-293
ared	-294
ag	-295
▁says	-296
▁started	-297
if	-298
oud	-299
▁made	-300
▁car	-301
▁something	-302
▁together	-303
▁park	-304
▁co	-305
ited	-306
ther	-307
▁sad	-308
▁other	-309
▁new	-310
▁E	-311
▁put	-312
▁exc	-313
▁from	-314
ell	-315
▁pr	-316
▁la	-317
▁hug	-318
ble	-319
ook	-320
ach	-321
▁mu	-322
▁again	-323
▁home	-324
▁when	-325
▁F	-326
▁good	-327
hat	-328
▁who	-329
ep	-330
est	-331
▁found	-332
▁then	-333
ried	-334
pped	-335
▁fl	-336
▁dec	-337
▁ch	-338
▁wal	-339
▁D	-340
qu	-341
as	-342
▁get	-343
▁playing	-344
ought	-345
pl	-346
▁sw	-347
ally	-348
▁Su	-349
▁things	-350
nn	-351
ous	-352
▁excited	-353
▁liked	-354
ro	-355
▁got	-356
uck	-357
ided	-358
▁Sam	-359
▁bl	-360
▁decided	-361
▁every	-362
▁came	-363
ave	-364
ara	-365
▁your	-366
ax	-367
▁v	-368
▁scared	-369
▁dog	-370
▁one	-371
ny	-372
ust	-373
▁down	-374
▁Ann	-375
ouse	-376
▁find	-377
▁bec	-378
▁care	-379
ist	-380
▁feel	-381
▁than	-382
ap	-383
▁Sara	-384
▁my	-385
▁ab	-386
▁dad	-387
▁ke	-388
▁look	-389
our	-390
▁will	-391
▁Anna	-392
nder	-393
arn	-394
▁gra	-395
▁Max	-396
▁gr	-397
ways	-398
▁po	-399
▁didn	-400
fe	-401
ess	-402
▁always	-403
▁took	-404
▁mommy	-405
ant	-406
▁about	-407
bb	-408
▁lot	-409
▁kne	-410
▁toys	-411
▁tree	-412
ise	-413
▁bu	-414
ers	-415
▁So	-416
▁outside	-417
ite	-418
▁thought	-419
▁ball	-420
▁more	-421
eci	-422
ened	-423
ched	-424
▁ho	-425
▁ta	-426
▁old	-427
▁int	-428
▁learn	-429
▁pu	-430
ret	-431
▁When	-432
ged	-433
▁know	-434
▁Jo	-435
▁take	-436
▁sor	-437
▁laug	-438
ecial	-439
▁special	-440
dden	-441
▁cat	-442
▁knew	-443
ive	-444
▁Her	-445
ia	-446
▁any	-447
▁pe	-448
ddenly	-449
fter	-450
▁tr	-451
au	-452
▁how	-453
ma	-454
▁show	-455
ink	-456
▁sorry	-457
▁tw	-458
▁run	-459
▁Jack	-460
and	-461
ish	-462
▁much	-463
▁Every	-464
▁sl	-465
▁hand	-466
ven	-467
▁house	-468
▁or	-469
▁op	-470
▁sun	-471
▁sk	-472
▁clo	-473
▁into	-474
▁mo	-475
▁tried	-476
▁inside	-477
ump	-478
▁en	-479
▁water	-480
ank	-481
▁if	-482
▁told	-483
ate	-484
▁this	-485
▁couldn	-486
▁qu	-487
dy	-488
▁proud	-489
▁over	-490
▁gave	-491
▁heard	-492
by	-493
ace	-494
▁each	-495
▁never	-496
▁expl	-497
here	-498
▁eat	-499
ty	-500
ause	-501
▁room	-502
other	-503
▁Suddenly	-504
▁We	-505
ion	-506
▁played	-507
▁pret	-508
▁pick	-509
ge	-510
▁Mia	-511
etter	-512
ak	-513
▁Then	-514
▁hugged	-515
▁gre	-516
▁just	-517
▁com	-518
▁off	-519
▁wat	-520
oth	-521
▁nice	-522
▁because	-523
▁box	-524
ue	-525
▁need	-526
▁From	-527
▁His	-528
▁str	-529
▁And	-530
▁many	-531
ile	-532
▁fo	-533
▁jo	-534
▁small	-535
▁bear	-536
uc	-537
▁long	-538
gry	-539
ort	-540
ving	-541
iz	-542
imal	-543
sed	-544
ough	-545
▁animal	-546
ine	-547
▁sn	-548
▁try	-549
▁unt	-550
ild	-551
urt	-552
▁until	-553
sel	-554
▁C	-555
▁â	-556
▁kind	-557
▁learned	-558
▁im	-559
▁better	-560
▁love	-561
ft	-562
▁call	-563
▁don	-564
▁end	-565
▁flow	-566
▁best	-567
urp	-568
Yes	-569
▁ad	-570
vent	-571
ady	-572
ream	-573
ars	-574
em	-575
urn	-576
aut	-577
ves	-578
▁cle	-579
arden	-580
▁garden	-581
ber	-582
lly	-583
▁cu	-584
▁fast	-585
▁careful	-586
pt	-587
▁even	-588
ies	-589
▁beaut	-590
▁jump	-591
▁bra	-592
▁thanked	-593
▁fi	-594
▁sky	-595
▁che	-596
▁laughed	-597
▁by	-598
▁gl	-599
▁loud	-600
▁te	-601
ase	-602
self	-603
Th	-604
iny	-605
▁way	-606
▁wo	-607
wn	-608
▁ra	-609
▁list	-610
▁come	-611
lew	-612
▁hard	-613
▁lots	-614
▁fam	-615
▁beauti	-616
▁beautiful	-617
▁still	-618
▁animals	-619
▁hurt	-620
▁Joh	-621
▁under	-622
▁stay	-623
ning	-624
▁P	-625
ect	-626
▁let	-627
ct	-628
▁both	-629
sh	-630
hes	-631
▁safe	-632
be	-633
▁col	-634
ool	-635
▁two	-636
ree	-637
▁bad	-638
▁book	-639
ane	-640
It	-641
▁rem	-642
▁imp	-643
▁As	-644
▁lived	-645
ople	-646
kay	-647
ock	-648
ast	-649
▁su	-650
▁walked	-651
▁its	-652
urpr	-653
▁should	-654
ob	-655
▁family	-656
▁brave	-657
▁angry	-658
ucy	-659
ished	-660
▁surpr	-661
▁Lucy	-662
▁red	-663
▁flew	-664
▁stor	-665
ress	-666
▁After	-667
igh	-668
No	-669
▁called	-670
▁people	-671
▁soon	-672
▁fin	-673
▁kept	-674
▁dan	-675
ip	-676
Let	-677
▁fly	-678
fore	-679
led	-680
▁fore	-681
xt	-682
▁share	-683
▁John	-684
ised	-685
▁pic	-686
dded	-687
▁door	-688
▁going	-689
▁Mommy	-690
▁Dad	-691
▁dra	-692
▁G	-693
▁pretty	-694
▁keep	-695
▁now	-696
ary	-697
▁rock	-698
▁doll	-699
▁cry	-700
▁clean	-701
ummy	-702
▁wind	-703
▁explore	-704
▁shiny	-705
▁advent	-706
illy	-707
▁opened	-708
▁noise	-709
▁con	-710
▁ide	-711
▁before	-712
ied	-713
age	-714
▁real	-715
▁sto	-716
les	-717
What	-718
so	-719
TM	-720
▁ground	-721
▁turn	-722
▁also	-723
▁fr	-724
▁ey	-725
▁idea	-726
▁far	-727
▁Sp	-728
▁color	-729
▁nodded	-730
oy	-731
▁feeling	-732
▁war	-733
▁un	-734
▁next	-735
th	-736
▁picked	-737
imb	-738
▁walking	-739
▁Bob	-740
thing	-741
eet	-742
ture	-743
▁climb	-744
▁has	-745
▁thr	-746
▁while	-747
▁smile	-748
▁ma	-749
▁bed	-750
▁adventure	-751
kes	-752
That	-753
ious	-754
Thank	-755
ger	-756
joy	-757
iced	-758
aybe	-759
▁dif	-760
▁being	-761
▁wr	-762
▁clos	-763
▁give	-764
ted	-765
▁food	-766
▁looking	-767
▁picture	-768
▁wait	-769
▁think	-770
▁N	-771
▁del	-772
ac	-773
▁eyes	-774
ff	-775
ught	-776
▁bro	-777
▁tow	-778
▁repl	-779
▁listen	-780
ting	-781
▁stopped	-782
▁own	-783
▁truck	-784
▁after	-785
▁bre	-786
▁wonder	-787
▁walk	-788
▁Spot	-789
▁R	-790
▁app	-791
ember	-792
▁enjoy	-793
▁vo	-794
▁great	-795
▁Sue	-796
▁blue	-797
▁hands	-798
▁head	-799
▁shout	-800
▁import	-801
▁ever	-802
bbit	-803
▁flowers	-804
▁forest	-805
▁quick	-806
▁noticed	-807
▁near	-808
irst	-809
▁de	-810
able	-811
ized	-812
▁dis	-813
▁remember	-814
▁important	-815
▁sound	-816
llow	-817
▁slide	-818
▁fish	-819
▁rain	-820
maz	-821
oon	-822
▁us	-823
▁watch	-824
▁amaz	-825
▁replied	-826
lease	-827
▁ac	-828
▁tal	-829
▁showed	-830
▁rabbit	-831
▁work	-832
fere	-833
▁differe	-834
▁ru	-835
▁okay	-836
gan	-837
bye	-838
▁ask	-839
bbed	-840
▁Sarah	-841
▁mean	-842
day	-843
▁squ	-844
▁bright	-845
▁everyone	-846
▁follow	-847
▁right	-848
▁watched	-849
▁ye	-850
▁tou	-851
▁strong	-852
▁use	-853
ered	-854
▁mor	-855
▁been	-856
▁quickly	-857
We	-858
▁where	-859
▁tra	-860
▁our	-861
▁voice	-862
▁different	-863
▁Jane	-864
▁stick	-865
▁yell	-866
▁boat	-867
ath	-868
▁child	-869
▁face	-870
▁sure	-871
▁store	-872
ng	-873
ange	-874
▁place	-875
▁goodbye	-876
▁curi	-877
▁became	-878
▁hop	-879
▁am	-880
▁Th	-881
▁high	-882
▁closer	-883
aught	-884
▁cook	-885
▁cr	-886
Look	-887
unny	-888
▁does	-889
▁warm	-890
▁dress	-891
▁forg	-892
▁bel	-893
▁mag	-894
▁tell	-895
ndma	-896
▁curious	-897
ass	-898
▁Joe	-899
▁fav	-900
ount	-901
ila	-902
▁three	-903
▁pull	-904
▁here	-905
▁cake	-906
co	-907
▁open	-908
more	-909
▁anymore	-910
itc	-911
leep	-912
▁first	-913
iss	-914
▁block	-915
▁z	-916
ached	-917
▁butter	-918
▁night	-919
ull	-920
imes	-921
ired	-922
▁Lila	-923
▁sweet	-924
orn	-925
Can	-926
▁grabbed	-927
▁only	-928
▁mon	-929
▁In	-930
▁kid	-931
▁sand	-932
▁lea	-933
▁fell	-934
▁Everyone	-935
▁pain	-936
▁cont	-937
▁birds	-938
▁bit	-939
▁jumped	-940
▁ba	-941
itchen	-942
▁kitchen	-943
▁glad	-944
isy	-945
▁That	-946
▁sees	-947
▁per	-948
▁helped	-949
▁stop	-950
▁flo	-951
▁fire	-952
▁grass	-953
▁happened	-954
▁dr	-955
▁story	-956
▁bunny	-957
nts	-958
▁tri	-959
▁sing	-960
▁shouted	-961
▁Tommy	-962
ppy	-963
▁Do	-964
air	-965
▁Let	-966
Mom	-967
▁reached	-968
▁yummy	-969
▁realized	-970
▁brother	-971
▁draw	-972
ins	-973
▁mum	-974
▁beh	-975
▁having	-976
ey	-977
▁favor	-978
▁lady	-979
▁rest	-980
▁cre	-981
▁prin	-982
▁favorite	-983
▁through	-984
▁less	-985
▁soft	-986
▁ate	-987
▁mess	-988
▁underst	-989
akes	-990
ather	-991
▁pare	-992
▁hat	-993
▁ready	-994
▁game	-995
▁really	-996
▁thing	-997
▁Can	-998
▁world	-999
ken	-1000
where	-1001
▁began	-1002
zy	-1003
▁fro	-1004
▁pretend	-1005
ater	-1006
▁pond	-1007
▁pap	-1008
▁himself	-1009
fully	-1010
▁mouse	-1011
▁magic	-1012
▁done	-1013
▁cut	-1014
▁butterf	-1015
▁looks	-1016
▁making	-1017
▁coming	-1018
ster	-1019
▁waved	-1020
▁kids	-1021
▁prom	-1022
▁why	-1023
▁tired	-1024
▁fix	-1025
olly	-1026
▁worry	-1027
▁cars	-1028
▁fill	-1029
rel	-1030
▁name	-1031
eddy	-1032
▁delic	-1033
▁part	-1034
▁duck	-1035
Wow	-1036
▁Fin	-1037
▁ste	-1038
▁hopped	-1039
▁catch	-1040
▁tast	-1041
ign	-1042
▁funny	-1043
ient	-1044
▁touch	-1045
▁used	-1046
bo	-1047
iver	-1048
▁seen	-1049
▁parents	-1050
▁another	-1051
▁top	-1052
oney	-1053
▁flower	-1054
mer	-1055
▁blocks	-1056
▁hair	-1057
▁cool	-1058
▁cried	-1059
▁hold	-1060
▁Sally	-1061
▁doing	-1062
hy	-1063
aisy	-1064
▁surprise	-1065
▁read	-1066
▁light	-1067
".	-1068
ation	-1069
▁lesson	-1070
▁green	-1071
ards	-1072
▁dri	-1073
▁thank	-1074
▁window	-1075
▁gi	-1076
▁running	-1077
▁din	-1078
▁floor	-1079
▁smell	-1080
▁wood	-1081
▁full	-1082
▁trees	-1083
▁spot	-1084
▁cra	-1085
▁worked	-1086
▁sho	-1087
Don	-1088
▁sat	-1089
▁dro	-1090
▁wished	-1091
▁frog	-1092
▁-	-1093
▁years	-1094
▁bag	-1095
andy	-1096
ul	-1097
▁paper	-1098
ued	-1099
ren	-1100
▁likes	-1101
▁behind	-1102
▁yellow	-1103
▁dark	-1104
ely	-1105
▁happily	-1106
▁ice	-1107
▁swim	-1108
▁Jim	-1109
▁surprised	-1110
aring	-1111
ike	-1112
▁cold	-1113
▁Benny	-1114
TMs	-1115
▁swing	-1116
▁bow	-1117
▁sleep	-1118
▁lost	-1119
▁set	-1120
▁hole	-1121
▁butterfly	-1122
▁Em	-1123
▁held	-1124
▁carefully	-1125
▁remembered	-1126
▁slow	-1127
uff	-1128
rew	-1129
us	-1130
▁buy	-1131
▁Daisy	-1132
ello	-1133
▁laugh	-1134
Hello	-1135
▁K	-1136
ons	-1137
▁left	-1138
▁At	-1139
▁perf	-1140
▁needed	-1141
▁enjoyed	-1142
▁arri	-1143
▁Billy	-1144
▁books	-1145
▁wrong	-1146
▁anything	-1147
▁Now	-1148
▁air	-1149
▁hear	-1150
▁tall	-1151
cess	-1152
▁dream	-1153
▁fair	-1154
▁followed	-1155
▁Finally	-1156
reed	-1157
▁children	-1158
▁move	-1159
ross	-1160
sy	-1161
▁There	-1162
▁delicious	-1163
▁hun	-1164
▁To	-1165
lf	-1166
▁contin	-1167
▁hot	-1168
▁table	-1169
▁friendly	-1170
▁finished	-1171
▁dir	-1172
▁Molly	-1173
▁snow	-1174
ds	-1175
▁herself	-1176
▁please	-1177
▁hill	-1178
▁Gra	-1179
▁el	-1180
▁wonderful	-1181
▁understand	-1182
▁arrived	-1183
▁hid	-1184
▁close	-1185
▁Amy	-1186
ens	-1187
▁cast	-1188
sp	-1189
ined	-1190
▁arm	-1191
▁forgot	-1192
▁bug	-1193
ield	-1194
▁else	-1195
▁baby	-1196
▁might	-1197
▁tight	-1198
▁colors	-1199
▁rel	-1200
▁gent	-1201
▁squir	-1202
▁broken	-1203
▁able	-1204
▁yes	-1205
av	-1206
▁gone	-1207
▁Jen	-1208
▁build	-1209
atter	-1210
ner	-1211
ich	-1212
room	-1213
▁creat	-1214
▁filled	-1215
▁wall	-1216
▁squirrel	-1217
▁continued	-1218
▁someone	-1219
▁gu	-1220
▁agreed	-1221
▁leaves	-1222
ama	-1223
▁enough	-1224
▁wants	-1225
▁song	-1226
ee	-1227
asure	-1228
▁count	-1229
▁pink	-1230
▁This	-1231
▁lion	-1232
▁morning	-1233
▁vis	-1234
ask	-1235
▁finally	-1236
▁stayed	-1237
▁cookies	-1238
▁beach	-1239
ries	-1240
▁moment	-1241
▁break	-1242
▁getting	-1243
ance	-1244
app	-1245
ced	-1246
▁grandma	-1247
shed	-1248
▁poin	-1249
▁cream	-1250
▁few	-1251
ash	-1252
▁sometimes	-1253
red	-1254
▁fall	-1255
row	-1256
▁scary	-1257
▁hungry	-1258
▁What	-1259
amp	-1260
▁fight	-1261
▁turned	-1262
gon	-1263
apped	-1264
▁mother	-1265
oom	-1266
▁castle	-1267
▁trying	-1268
▁Maybe	-1269
▁amazing	-1270
▁dinner	-1271
▁comp	-1272
▁talk	-1273
▁daddy	-1274
▁pi	-1275
▁perfect	-1276
▁others	-1277
▁ju	-1278
key	-1279
▁makes	-1280
▁pictures	-1281
▁climbed	-1282
ere	-1283
▁wet	-1284
man	-1285
▁mus	-1286
oup	-1287
▁met	-1288
icy	-1289
▁listened	-1290
▁white	-1291
▁smiles	-1292
▁fur	-1293
oring	-1294
▁clot	-1295
▁alone	-1296
ated	-1297
▁balloon	-1298
▁spl	-1299
▁clothes	-1300
▁pol	-1301
▁Jill	-1302
lc	-1303
ctor	-1304
rot	-1305
▁joy	-1306
▁puppy	-1307
▁mar	-1308
▁brought	-1309
▁tail	-1310
▁everything	-1311
▁deep	-1312
wl	-1313
▁wasn	-1314
▁sit	-1315
▁pulled	-1316
▁spark	-1317
▁pet	-1318
▁won	-1319
▁sear	-1320
▁grow	-1321
Oh	-1322
▁strange	-1323
der	-1324
▁woods	-1325
▁sail	-1326
ence	-1327
▁plan	-1328
▁fox	-1329
ister	-1330
▁ride	-1331
▁danger	-1332
▁asks	-1333
▁treat	-1334
▁pie	-1335
uffy	-1336
▁leave	-1337
▁visit	-1338
me	-1339
ott	-1340
eter	-1341
▁roll	-1342
▁pat	-1343
os	-1344
med	-1345
ang	-1346
▁music	-1347
▁Soon	-1348
This	-1349
▁teddy	-1350
▁waited	-1351
▁amazed	-1352
▁land	-1353
ever	-1354
▁towards	-1355
But	-1356
▁hide	-1357
▁pre	-1358
▁field	-1359
ower	-1360
▁All	-1361
ucky	-1362
▁owner	-1363
▁shared	-1364
▁runs	-1365
zz	-1366
▁pen	-1367
ope	-1368
ames	-1369
cket	-1370
▁silly	-1371
▁flying	-1372
▁cloud	-1373
ained	-1374
▁Daddy	-1375
ugg	-1376
ape	-1377
▁Mama	-1378
▁belie	-1379
▁moral	-1380
▁job	-1381
igg	-1382
▁qui	-1383
▁promised	-1384
▁living	-1385
▁Mary	-1386
▁thinks	-1387
▁lake	-1388
ually	-1389
Maybe	-1390
orm	-1391
▁side	-1392
▁party	-1393
sw	-1394
▁sec	-1395
ol	-1396
thy	-1397
▁money	-1398
▁answ	-1399
▁quiet	-1400
gs	-1401
Okay	-1402
▁wear	-1403
▁dance	-1404
▁cup	-1405
unch	-1406
▁Fl	-1407
cle	-1408
▁colorful	-1409
ises	-1410
ling	-1411
▁race	-1412
▁must	-1413
▁sister	-1414
avy	-1415
▁paint	-1416
▁ve	-1417
ased	-1418
▁bran	-1419
▁broke	-1420
▁worried	-1421
ze	-1422
▁grate	-1423
eces	-1424
▁slowly	-1425
▁pot	-1426
▁pieces	-1427
▁welc	-1428
▁faster	-1429
ix	-1430
ph	-1431
fort	-1432
▁Mr	-1433
▁grateful	-1434
▁such	-1435
▁bigger	-1436
▁reach	-1437
▁stu	-1438
uit	-1439
▁bott	-1440
▁river	-1441
▁cho	-1442
▁gif	-1443
▁ele	-1444
▁win	-1445
▁blank	-1446
less	-1447
▁monster	-1448
▁pro	-1449
▁black	-1450
▁train	-1451
▁monkey	-1452
ear	-1453
▁snack	-1454
▁candy	-1455
▁join	-1456
▁plant	-1457
ire	-1458
▁bike	-1459
▁nap	-1460
▁dangerous	-1461
▁smart	-1462
outh	-1463
▁blanket	-1464
▁across	-1465
▁dragon	-1466
OK	-1467
▁scream	-1468
▁treasure	-1469
▁Just	-1470
▁Jimmy	-1471
▁magical	-1472
▁sign	-1473
▁princess	-1474
▁mouth	-1475
▁farmer	-1476
▁bar	-1477
▁em	-1478
▁most	-1479
▁everywhere	-1480
▁pa	-1481
▁helping	-1482
Why	-1483
▁disapp	-1484
set	-1485
ored	-1486
Sure	-1487
▁threw	-1488
▁words	-1489
▁twins	-1490
de	-1491
▁doctor	-1492
eared	-1493
▁je	-1494
ipped	-1495
Hi	-1496
▁crying	-1497
▁stre	-1498
▁same	-1499
▁bite	-1500
▁dolls	-1501
▁dirty	-1502
▁hig	-1503
▁pass	-1504
TMt	-1505
▁buck	-1506
ming	-1507
▁heavy	-1508
▁tower	-1509
▁stepped	-1510
▁wouldn	-1511
▁spr	-1512
▁fruit	-1513
Mommy	-1514
▁believe	-1515
bble	-1516
ident	-1517
▁acc	-1518
▁heal	-1519
chool	-1520
▁bowl	-1521
▁min	-1522
▁att	-1523
▁closed	-1524
▁Grandma	-1525
▁cray	-1526
▁cour	-1527
cked	-1528
▁stuck	-1529
▁carrot	-1530
▁heart	-1531
▁Mum	-1532
▁suddenly	-1533
iting	-1534
The	-1535
▁school	-1536
▁bath	-1537
▁pack	-1538
▁mix	-1539
▁brown	-1540
▁hoped	-1541
▁feels	-1542
▁clapped	-1543
▁bee	-1544
▁course	-1545
▁eating	-1546
asket	-1547
▁teac	-1548
▁Emma	-1549
▁basket	-1550
▁coll	-1551
▁chair	-1552
▁fairy	-1553
ventually	-1554
▁town	-1555
br	-1556
pping	-1557
▁butt	-1558
▁swings	-1559
▁stand	-1560
▁drove	-1561
▁higher	-1562
▁pocket	-1563
▁without	-1564
ier	-1565
issed	-1566
▁hit	-1567
▁gentle	-1568
ord	-1569
▁welcome	-1570
▁pushed	-1571
ors	-1572
▁neigh	-1573
▁today	-1574
orrow	-1575
▁cheered	-1576
▁Inside	-1577
▁games	-1578
ts	-1579
▁neighb	-1580
▁ben	-1581
▁piece	-1582
▁forget	-1583
ead	-1584
▁teacher	-1585
▁apple	-1586
▁yard	-1587
▁explained	-1588
ourn	-1589
▁longer	-1590
▁pers	-1591
ment	-1592
▁dry	-1593
▁inst	-1594
▁free	-1595
▁journ	-1596
▁smo	-1597
▁Sammy	-1598
phant	-1599
ract	-1600
vel	-1601
ible	-1602
▁along	-1603
▁corn	-1604
▁shoes	-1605
▁wings	-1606
▁accident	-1607
▁throw	-1608
▁miss	-1609
▁late	-1610
▁key	-1611
▁young	-1612
▁neck	-1613
▁hugs	-1614
ountain	-1615
▁Their	-1616
itting	-1617
umb	-1618
▁happen	-1619
▁stories	-1620
▁noises	-1621
▁elephant	-1622
cy	-1623
▁turns	-1624
ho	-1625
▁lon	-1626
▁lunch	-1627
▁singing	-1628
▁trou	-1629
▁purp	-1630
▁sang	-1631
▁dist	-1632
oun	-1633
▁lonely	-1634
▁adventures	-1635
ches	-1636
▁owl	-1637
▁upset	-1638
▁belong	-1639
▁wish	-1640
▁star	-1641
bby	-1642
▁street	-1643
▁moved	-1644
▁Fluffy	-1645
▁well	-1646
▁mine	-1647
▁jar	-1648
▁shook	-1649
▁mat	-1650
▁tom	-1651
ek	-1652
▁nearby	-1653
▁Tw	-1654
▁secret	-1655
▁sea	-1656
bow	-1657
▁shap	-1658
▁bucket	-1659
▁plac	-1660
▁year	-1661
▁bring	-1662
▁inv	-1663
▁exploring	-1664
▁orange	-1665
▁wise	-1666
▁purple	-1667
▁stars	-1668
▁shop	-1669
aughty	-1670
▁whe	-1671
▁fence	-1672
▁naughty	-1673
fused	-1674
ocked	-1675
aughter	-1676
▁caught	-1677
ail	-1678
▁soup	-1679
▁exp	-1680
ward	-1681
▁rocks	-1682
▁ph	-1683
▁bus	-1684
▁relie	-1685
▁seemed	-1686
Do	-1687
▁drink	-1688
▁es	-1689
adow	-1690
▁des	-1691
yard	-1692
llo	-1693
▁resp	-1694
▁backyard	-1695
▁Thank	-1696
▁though	-1697
ces	-1698
▁dropped	-1699
ions	-1700
▁woke	-1701
▁cow	-1702
▁bench	-1703
▁ob	-1704
▁sounds	-1705
▁mail	-1706
▁shapes	-1707
▁Later	-1708
▁rainbow	-1709
▁wondered	-1710
▁comes	-1711
▁farm	-1712
▁nest	-1713
▁daughter	-1714
▁taking	-1715
▁af	-1716
▁tiny	-1717
▁swam	-1718
▁past	-1719
▁fit	-1720
to	-1721
▁mark	-1722
▁busy	-1723
ung	-1724
ity	-1725
ese	-1726
read	-1727
▁cou	-1728
▁takes	-1729
▁nose	-1730
▁sitting	-1731
thday	-1732
col	-1733
▁coat	-1734
▁holding	-1735
▁mad	-1736
fish	-1737
Lily	-1738
▁kite	-1739
▁nothing	-1740
▁pig	-1741
▁arms	-1742
og	-1743
▁With	-1744
▁driver	-1745
▁Jenny	-1746
▁cir	-1747
▁branch	-1748
ose	-1749
raid	-1750
▁relieved	-1751
▁Ell	-1752
ining	-1753
cing	-1754
▁spoon	-1755
▁afraid	-1756
▁juice	-1757
Of	-1758
▁Al	-1759
▁boun	-1760
▁cute	-1761
▁fing	-1762
pper	-1763
vered	-1764
▁mil	-1765
▁promise	-1766
eth	-1767
sting	-1768
▁round	-1769
▁peace	-1770
ours	-1771
▁huge	-1772
ale	-1773
idge	-1774
▁patient	-1775
▁lift	-1776
▁birthday	-1777
▁sick	-1778
▁forever	-1779
unt	-1780
▁Come	-1781
▁Tweet	-1782
▁act	-1783
▁exciting	-1784
▁onto	-1785
▁sunny	-1786
▁carry	-1787
cer	-1788
▁gift	-1789
▁hello	-1790
▁touched	-1791
▁laughing	-1792
▁bush	-1793
▁shell	-1794
▁intere	-1795
▁grab	-1796
▁bread	-1797
▁band	-1798
▁cheese	-1799
Hey	-1800
ped	-1801
▁creature	-1802
sc	-1803
▁life	-1804
▁days	-1805
▁gigg	-1806
▁king	-1807
▁disco	-1808
board	-1809
ittens	-1810
▁letter	-1811
▁imag	-1812
▁instead	-1813
arp	-1814
▁inc	-1815
▁journey	-1816
▁mist	-1817
ten	-1818
gged	-1819
▁ret	-1820
▁kick	-1821
▁whist	-1822
▁Wh	-1823
▁pudd	-1824
let	-1825
▁cozy	-1826
▁hope	-1827
▁sharp	-1828
alm	-1829
▁comfort	-1830
▁watching	-1831
ness	-1832
▁apples	-1833
▁ear	-1834
shine	-1835
▁suc	-1836
▁milk	-1837
▁swimming	-1838
▁road	-1839
▁talked	-1840
▁puts	-1841
▁sandw	-1842
▁fan	-1843
gg	-1844
▁honey	-1845
▁ent	-1846
▁Emily	-1847
▁return	-1848
▁accidentally	-1849
▁eas	-1850
▁gather	-1851
▁spo	-1852
▁collect	-1853
▁cave	-1854
▁wra	-1855
ndp	-1856
▁power	-1857
▁bottle	-1858
▁gives	-1859
▁pointed	-1860
▁sunshine	-1861
itch	-1862
▁spin	-1863
▁smiling	-1864
▁hor	-1865
▁anyone	-1866
▁crayons	-1867
▁bought	-1868
▁ce	-1869
▁searched	-1870
▁later	-1871
▁Ch	-1872
▁lucky	-1873
œI	-1874
blem	-1875
▁vill	-1876
▁problem	-1877
▁eag	-1878
▁pile	-1879
aur	-1880
ub	-1881
▁rope	-1882
round	-1883
cks	-1884
itten	-1885
▁mach	-1886
Good	-1887
irt	-1888
▁kiss	-1889
▁interesting	-1890
▁zoom	-1891
els	-1892
▁plane	-1893
oman	-1894
▁pres	-1895
▁loves	-1896
▁clouds	-1897
▁woman	-1898
▁tasty	-1899
ont	-1900
▁storm	-1901
amed	-1902
ove	-1903
▁meet	-1904
▁wide	-1905
ize	-1906
erly	-1907
ball	-1908
▁adm	-1909
▁zoo	-1910
▁pop	-1911
▁healthy	-1912
▁ducks	-1913
▁clever	-1914
owed	-1915
▁prot	-1916
▁feather	-1917
▁front	-1918
▁trouble	-1919
▁person	-1920
▁button	-1921
eb	-1922
▁matter	-1923
▁smelled	-1924
▁protect	-1925
ndpa	-1926
▁How	-1927
▁minut	-1928
▁shining	-1929
▁spid	-1930
▁pill	-1931
▁present	-1932
▁respect	-1933
▁par	-1934
▁Jake	-1935
isa	-1936
▁mud	-1937
▁appeared	-1938
▁path	-1939
▁seat	-1940
▁saf	-1941
▁spotted	-1942
▁cheer	-1943
Come	-1944
▁myster	-1945
▁St	-1946
▁puzz	-1947
▁hon	-1948
▁Somet	-1949
▁danced	-1950
▁screamed	-1951
▁pract	-1952
▁ap	-1953
▁lovely	-1954
▁teach	-1955
▁snowman	-1956
▁thin	-1957
▁organ	-1958
▁sur	-1959
▁quest	-1960
▁snake	-1961
epend	-1962
▁val	-1963
▁horse	-1964
▁giant	-1965
▁cookie	-1966
▁wild	-1967
▁Lisa	-1968
ond	-1969
▁answer	-1970
▁whole	-1971
▁shr	-1972
▁Together	-1973
▁bark	-1974
▁gently	-1975
ert	-1976
▁asleep	-1977
▁which	-1978
▁goes	-1979
▁splas	-1980
nic	-1981
▁neighbor	-1982
▁card	-1983
▁mind	-1984
▁search	-1985
▁wearing	-1986
▁corner	-1987
▁picnic	-1988
▁tasted	-1989
▁Mittens	-1990
▁rude	-1991
▁worm	-1992
▁places	-1993
▁impress	-1994
▁ca	-1995
ular	-1996
▁dirt	-1997
▁slid	-1998
▁rolled	-1999
up	-2000
▁med	-2001
▁live	-2002
▁oven	-2003
▁Re	-2004
▁Go	-2005
▁tries	-2006
oose	-2007
▁trip	-2008
▁supp	-2009
▁forgive	-2010
▁teeth	-2011
▁drive	-2012
▁confused	-2013
cean	-2014
▁phone	-2015
▁ocean	-2016
▁ring	-2017
itty	-2018
ssed	-2019
een	-2020
▁mountain	-2021
▁calm	-2022
▁spent	-2023
izz	-2024
ato	-2025
▁Le	-2026
▁lay	-2027
▁rob	-2028
▁last	-2029
▁machine	-2030
▁ash	-2031
▁delight	-2032
la	-2033
▁cart	-2034
umber	-2035
▁eventually	-2036
▁pour	-2037
▁furry	-2038
▁di	-2039
▁helpful	-2040
▁rec	-2041
▁ser	-2042
▁feet	-2043
▁lad	-2044
▁wip	-2045
▁spider	-2046
▁pan	-2047
▁rep	-2048
Tom	-2049
▁faces	-2050
▁bubble	-2051
▁village	-2052
▁Be	-2053
▁wave	-2054
▁pretended	-2055
unk	-2056
ife	-2057
bar	-2058
▁robot	-2059
▁talking	-2060
▁fold	-2061
▁tomorrow	-2062
▁remind	-2063
▁push	-2064
▁shy	-2065
▁foot	-2066
arge	-2067
▁spread	-2068
▁'	-2069
▁coin	-2070
▁puddle	-2071
▁sel	-2072
▁wore	-2073
▁couch	-2074
▁ladder	-2075
▁smooth	-2076
▁write	-2077
▁tid	-2078
▁waiting	-2079
ones	-2080
per	-2081
▁hiding	-2082
▁Little	-2083
▁ban	-2084
▁tun	-2085
▁Sometimes	-2086
▁treats	-2087
▁sal	-2088
▁bugs	-2089
▁bell	-2090
▁Peter	-2091
▁stir	-2092
▁ign	-2093
▁Sus	-2094
▁chocol	-2095
▁Teddy	-2096
barra	-2097
▁sack	-2098
▁tool	-2099
▁cloth	-2100
My	-2101
ighed	-2102
▁embarra	-2103
▁blew	-2104
▁stret	-2105
▁chick	-2106
▁neckl	-2107
▁cann	-2108
▁ant	-2109
als	-2110
▁fighting	-2111
▁whenever	-2112
▁cross	-2113
▁knee	-2114
▁Johnn	-2115
lex	-2116
▁shelf	-2117
▁chased	-2118
▁building	-2119
ult	-2120
▁paw	-2121
mo	-2122
▁cannot	-2123
▁maybe	-2124
▁step	-2125
▁scar	-2126
▁finish	-2127
oph	-2128
▁spe	-2129
▁taste	-2130
▁sol	-2131
▁Mummy	-2132
▁leaf	-2133
box	-2134
ator	-2135
umpy	-2136
▁pool	-2137
▁selfish	-2138
▁Everywhere	-2139
▁large	-2140
▁Johnny	-2141
▁coo	-2142
▁hel	-2143
▁stra	-2144
old	-2145
▁wash	-2146
▁hum	-2147
lebr	-2148
▁peaceful	-2149
▁ple	-2150
▁net	-2151
▁barked	-2152
▁tidy	-2153
▁fixed	-2154
▁string	-2155
▁celebr	-2156
Please	-2157
▁chocolate	-2158
oin	-2159
▁songs	-2160
▁missed	-2161
▁Please	-2162
arm	-2163
▁spray	-2164
▁colour	-2165
getable	-2166
▁jumping	-2167
▁vegetable	-2168
▁gen	-2169
▁crab	-2170
▁banan	-2171
▁bat	-2172
▁landed	-2173
▁deter	-2174
▁tea	-2175
▁TV	-2176
▁embarrassed	-2177
ungle	-2178
▁creative	-2179
▁determ	-2180
St	-2181
▁Alice	-2182
▁necklace	-2183
▁jungle	-2184
ush	-2185
▁forward	-2186
ird	-2187
airs	-2188
▁sharing	-2189
▁disappoin	-2190
dge	-2191
▁stone	-2192
▁carrots	-2193
▁Don	-2194
▁hears	-2195
▁Even	-2196
orry	-2197
▁gray	-2198
▁whis	-2199
▁trust	-2200
▁While	-2201
▁shirt	-2202
▁sour	-2203
▁Bu	-2204
▁plate	-2205
▁grew	-2206
ian	-2207
most	-2208
▁Some	-2209
▁knocked	-2210
▁whistle	-2211
▁ber	-2212
▁honest	-2213
aking	-2214
▁meadow	-2215
iger	-2216
▁moon	-2217
▁emp	-2218
▁ashamed	-2219
▁gener	-2220
▁splash	-2221
▁Bo	-2222
▁Z	-2223
▁success	-2224
▁empty	-2225
▁Why	-2226
▁breath	-2227
▁decor	-2228
▁meant	-2229
▁gas	-2230
ustr	-2231
▁almost	-2232
▁tightly	-2233
ying	-2234
elly	-2235
▁lem	-2236
▁sticks	-2237
dle	-2238
den	-2239
ned	-2240
▁bal	-2241
▁legs	-2242
▁stood	-2243
▁tells	-2244
▁understood	-2245
▁nut	-2246
ground	-2247
▁disappointed	-2248
ork	-2249
▁sheep	-2250
▁carried	-2251
▁yelled	-2252
ina	-2253
▁finger	-2254
▁frustr	-2255
▁save	-2256
ony	-2257
▁Mark	-2258
▁pay	-2259
▁pillow	-2260
▁nods	-2261
ital	-2262
▁rad	-2263
ets	-2264
▁sparkly	-2265
▁bedroom	-2266
▁blow	-2267
kin	-2268
Where	-2269
▁hosp	-2270
▁police	-2271
▁gold	-2272
▁hours	-2273
hin	-2274
arl	-2275
▁kitten	-2276
▁hospital	-2277
▁these	-2278
▁group	-2279
▁mysterious	-2280
▁hidden	-2281
▁scarf	-2282
▁sandwich	-2283
▁snacks	-2284
▁ship	-2285
▁minutes	-2286
vous	-2287
iff	-2288
▁pizz	-2289
▁hur	-2290
▁glass	-2291
▁bored	-2292
▁jew	-2293
▁line	-2294
▁standing	-2295
▁polite	-2296
▁knowing	-2297
▁test	-2298
▁pri	-2299
▁generous	-2300
▁wolf	-2301
▁frustrated	-2302
▁taught	-2303
erp	-2304
▁Leo	-2305
urse	-2306
▁Dan	-2307
▁messy	-2308
▁Br	-2309
▁Susie	-2310
aul	-2311
▁waves	-2312
▁Bl	-2313
▁returned	-2314
osaur	-2315
oop	-2316
fl	-2317
▁puzzle	-2318
▁passed	-2319
▁seek	-2320
▁shore	-2321
▁chew	-2322
▁sighed	-2323
▁drew	-2324
▁pizza	-2325
work	-2326
▁av	-2327
▁class	-2328
▁pin	-2329
uce	-2330
▁plants	-2331
▁van	-2332
Stop	-2333
▁easy	-2334
▁determined	-2335
▁tick	-2336
▁lock	-2337
▁fancy	-2338
▁Rex	-2339
▁dinosaur	-2340
▁seed	-2341
▁fig	-2342
▁reg	-2343
▁match	-2344
▁spoil	-2345
▁wis	-2346
▁answered	-2347
▁spicy	-2348
ella	-2349
▁flag	-2350
▁ner	-2351
cles	-2352
▁gun	-2353
▁excite	-2354
▁twirl	-2355
ano	-2356
▁sleepy	-2357
▁thankful	-2358
▁feed	-2359
▁kissed	-2360
▁gathered	-2361
▁nervous	-2362
ote	-2363
▁fear	-2364
▁often	-2365
itter	-2366
▁prince	-2367
▁hang	-2368
af	-2369
▁mot	-2370
▁hopping	-2371
▁closet	-2372
▁tears	-2373
gly	-2374
▁gate	-2375
sist	-2376
▁grumpy	-2377
▁cries	-2378
▁bridge	-2379
▁esc	-2380
▁ugly	-2381
que	-2382
▁powerful	-2383
▁yourself	-2384
▁vegetables	-2385
Sorry	-2386
▁jelly	-2387
▁Today	-2388
ensive	-2389
iddle	-2390
▁taken	-2391
▁deer	-2392
▁pir	-2393
▁scr	-2394
selves	-2395
Are	-2396
▁cand	-2397
erpill	-2398
▁caterpill	-2399
▁expensive	-2400
▁excitement	-2401
pack	-2402
▁chest	-2403
▁lit	-2404
mb	-2405
ugar	-2406
▁sold	-2407
▁poor	-2408
▁fil	-2409
▁ok	-2410
▁saved	-2411
issors	-2412
▁asking	-2413
Ben	-2414
▁working	-2415
▁true	-2416
illed	-2417
oof	-2418
▁boring	-2419
▁tie	-2420
izzy	-2421
▁spend	-2422
▁burn	-2423
▁pleased	-2424
▁ones	-2425
▁drop	-2426
▁scissors	-2427
body	-2428
▁sugar	-2429
▁packed	-2430
▁clown	-2431
ecially	-2432
▁middle	-2433
▁wagged	-2434
▁crown	-2435
ete	-2436
pecially	-2437
▁Bobby	-2438
▁especially	-2439
▁caterpillar	-2440
ser	-2441
▁drum	-2442
▁knight	-2443
ots	-2444
▁picks	-2445
▁eld	-2446
▁fruits	-2447
▁mistake	-2448
▁brush	-2449
Who	-2450
▁drawing	-2451
▁fake	-2452
light	-2453
▁stuff	-2454
▁gets	-2455
▁U	-2456
▁mummy	-2457
▁smelly	-2458
▁mir	-2459
▁Kitty	-2460
▁comfortable	-2461
▁cap	-2462
▁cri	-2463
▁leg	-2464
▁wander	-2465
▁tent	-2466
▁distance	-2467
▁number	-2468
▁medic	-2469
▁dancing	-2470
▁giggled	-2471
▁clap	-2472
▁cage	-2473
▁sight	-2474
ual	-2475
▁fis	-2476
▁press	-2477
▁walks	-2478
▁bone	-2479
▁vase	-2480
▁lemon	-2481
▁boss	-2482
▁dest	-2483
era	-2484
▁moving	-2485
ha	-2486
▁Blue	-2487
▁lead	-2488
▁medicine	-2489
▁calling	-2490
▁week	-2491
▁Eventually	-2492
ates	-2493
▁lose	-2494
ror	-2495
▁pus	-2496
▁OK	-2497
ggs	-2498
▁splashed	-2499
▁lamp	-2500
▁Pete	-2501
▁bake	-2502
▁eggs	-2503
▁lying	-2504
iness	-2505
▁No	-2506
▁Fred	-2507
▁moms	-2508
▁crawl	-2509
▁pray	-2510
▁incred	-2511
aged	-2512
▁wheel	-2513
▁roar	-2514
▁rocket	-2515
▁dogs	-2516
Now	-2517
▁flut	-2518
▁licked	-2519
▁weak	-2520
▁horn	-2521
▁dig	-2522
▁glue	-2523
▁become	-2524
▁eager	-2525
yal	-2526
▁nod	-2527
▁bathroom	-2528
▁sweetie	-2529
▁crack	-2530
▁disappeared	-2531
▁body	-2532
▁twist	-2533
▁elderly	-2534
▁playground	-2535
▁Mandy	-2536
▁yours	-2537
▁exam	-2538
▁change	-2539
uggest	-2540
▁suggest	-2541
▁questions	-2542
▁feathers	-2543
▁ind	-2544
▁If	-2545
▁yog	-2546
▁father	-2547
eez	-2548
?".	-2549
ination	-2550
▁gar	-2551
▁wrote	-2552
▁rare	-2553
▁lazy	-2554
▁End	-2555
▁dish	-2556
▁drank	-2557
▁noisy	-2558
illi	-2559
▁mirror	-2560
▁mic	-2561
▁add	-2562
▁ext	-2563
▁ed	-2564
▁loyal	-2565
▁incredible	-2566
elp	-2567
▁Ellie	-2568
▁skipped	-2569
▁coins	-2570
▁mov	-2571
▁famous	-2572
land	-2573
ory	-2574
ating	-2575
▁glow	-2576
▁soap	-2577
▁ruined	-2578
▁ord	-2579
▁rid	-2580
ique	-2581
▁rich	-2582
ately	-2583
▁figure	-2584
▁content	-2585
▁clear	-2586
▁tape	-2587
▁balls	-2588
▁needs	-2589
▁covered	-2590
▁Bella	-2591
▁juicy	-2592
umbled	-2593
▁ham	-2594
cept	-2595
▁aw	-2596
▁unique	-2597
▁march	-2598
▁decide	-2599
▁Brown	-2600
▁realised	-2601
▁relax	-2602
▁sailed	-2603
▁fluffy	-2604
▁shoot	-2605
▁check	-2606
▁stones	-2607
▁bubbles	-2608
▁team	-2609
▁discovered	-2610
▁Ella	-2611
▁joke	-2612
▁sell	-2613
▁board	-2614
▁fine	-2615
▁barn	-2616
▁extra	-2617
▁shows	-2618
fic	-2619
▁straw	-2620
▁frown	-2621
imp	-2622
keep	-2623
▁branches	-2624
▁borrow	-2625
hip	-2626
ti	-2627
▁knife	-2628
▁diffic	-2629
▁towel	-2630
▁cost	-2631
port	-2632
Be	-2633
Help	-2634
▁Mrs	-2635
▁toug	-2636
▁queen	-2637
▁hose	-2638
▁mod	-2639
▁libr	-2640
▁map	-2641
asing	-2642
▁boys	-2643
▁motor	-2644
▁difficult	-2645
▁cleaned	-2646
Well	-2647
▁measure	-2648
rag	-2649
▁hurts	-2650
▁adventur	-2651
▁organized	-2652
▁lifted	-2653
▁Rose	-2654
▁balloons	-2655
▁berries	-2656
▁word	-2657
▁bottom	-2658
ipper	-2659
▁Bobo	-2660
▁colourful	-2661
▁saying	-2662
ject	-2663
▁harder	-2664
▁thick	-2665
▁Mar	-2666
▁island	-2667
▁swan	-2668
▁adventurous	-2669
▁happening	-2670
▁Dave	-2671
▁Mike	-2672
▁offered	-2673
▁learning	-2674
▁kindness	-2675
▁ter	-2676
▁tough	-2677
alous	-2678
▁track	-2679
cil	-2680
▁turt	-2681
▁fright	-2682
▁circle	-2683
▁balance	-2684
▁cover	-2685
imed	-2686
▁tiger	-2687
▁pencil	-2688
Me	-2689
▁guess	-2690
keeper	-2691
▁eye	-2692
▁Fr	-2693
▁jealous	-2694
lies	-2695
▁tag	-2696
ready	-2697
▁once	-2698
▁weird	-2699
▁whale	-2700
▁pointing	-2701
▁pump	-2702
▁dolp	-2703
▁craw	-2704
erry	-2705
▁already	-2706
▁crawled	-2707
▁batter	-2708
▁favour	-2709
olog	-2710
▁garage	-2711
▁managed	-2712
▁louder	-2713
▁ang	-2714
▁market	-2715
illiant	-2716
ages	-2717
▁record	-2718
▁sword	-2719
▁added	-2720
▁dizzy	-2721
ured	-2722
▁belonged	-2723
▁impressed	-2724
alk	-2725
▁mighty	-2726
▁chicken	-2727
▁brilliant	-2728
▁shake	-2729
▁arg	-2730
▁sil	-2731
▁edge	-2732
▁spun	-2733
▁apolog	-2734
▁norm	-2735
▁chase	-2736
▁trucks	-2737
▁enjoying	-2738
▁cheerful	-2739
▁Tweety	-2740
rage	-2741
▁favourite	-2742
▁hats	-2743
▁grace	-2744
aw	-2745
▁compet	-2746
▁strawber	-2747
Tim	-2748
▁cab	-2749
▁hunt	-2750
▁valu	-2751
▁four	-2752
▁jewel	-2753
head	-2754
▁bald	-2755
▁stubb	-2756
▁whisp	-2757
ddy	-2758
▁harm	-2759
▁jack	-2760
Here	-2761
▁loudly	-2762
▁normal	-2763
▁guit	-2764
ature	-2765
▁terri	-2766
iv	-2767
ilt	-2768
▁cabin	-2769
▁nosy	-2770
▁boxes	-2771
▁trunk	-2772
▁cher	-2773
▁circles	-2774
ipp	-2775
▁pee	-2776
▁wrapped	-2777
▁helps	-2778
▁invited	-2779
▁grown	-2780
▁hero	-2781
▁giving	-2782
▁Grandpa	-2783
▁stubborn	-2784
fast	-2785
▁fool	-2786
cient	-2787
▁unus	-2788
▁safely	-2789
ym	-2790
▁wand	-2791
▁laughs	-2792
uggled	-2793
▁choose	-2794
▁knows	-2795
▁unusual	-2796
▁breakfast	-2797
▁proudly	-2798
▁against	-2799
▁accept	-2800
▁crayon	-2801
▁slipped	-2802
ouses	-2803
▁melt	-2804
▁shark	-2805
anged	-2806
▁competit	-2807
▁ancient	-2808
gy	-2809
▁skin	-2810
▁escape	-2811
▁brothers	-2812
▁shells	-2813
apping	-2814
▁frightened	-2815
▁guitar	-2816
▁Soph	-2817
▁fier	-2818
edient	-2819
▁office	-2820
pes	-2821
▁ref	-2822
▁space	-2823
▁log	-2824
▁My	-2825
▁pil	-2826
▁thu	-2827
▁valuable	-2828
▁successful	-2829
▁fridge	-2830
▁banana	-2831
▁dreamed	-2832
▁turtle	-2833
▁walls	-2834
▁scare	-2835
▁goat	-2836
oppy	-2837
▁wake	-2838
▁bossy	-2839
▁toast	-2840
▁unl	-2841
▁study	-2842
▁houses	-2843
ipe	-2844
▁bloom	-2845
▁depend	-2846
▁ears	-2847
▁dough	-2848
▁stri	-2849
ext	-2850
▁shape	-2851
▁smoke	-2852
▁fierce	-2853
ado	-2854
▁buttons	-2855
▁happiness	-2856
▁aunt	-2857
▁painting	-2858
▁icy	-2859
▁obedient	-2860
▁wagon	-2861
▁fat	-2862
▁means	-2863
▁wiped	-2864
▁cudd	-2865
omed	-2866
▁flash	-2867
▁birdie	-2868
ery	-2869
▁wrap	-2870
▁rough	-2871
▁suggested	-2872
orge	-2873
▁falls	-2874
▁locked	-2875
▁explored	-2876
ye	-2877
▁grandpa	-2878
▁design	-2879
▁dreams	-2880
uth	-2881
laimed	-2882
▁city	-2883
▁frag	-2884
œLet	-2885
▁poured	-2886
▁Ge	-2887
▁swe	-2888
atch	-2889
▁times	-2890
▁independ	-2891
▁foolish	-2892
▁shadow	-2893
▁fountain	-2894
▁exclaimed	-2895
▁nicely	-2896
▁stream	-2897
▁useful	-2898
wards	-2899
▁tools	-2900
kn	-2901
▁parrot	-2902
▁eng	-2903
▁kinds	-2904
▁lean	-2905
▁stumbled	-2906
ention	-2907
▁mixed	-2908
▁raced	-2909
▁jog	-2910
▁son	-2911
▁notice	-2912
az	-2913
▁bags	-2914
▁dead	-2915
▁hoop	-2916
▁low	-2917
vice	-2918
▁sounded	-2919
▁clay	-2920
▁helm	-2921
▁fragile	-2922
▁cone	-2923
▁stove	-2924
▁lights	-2925
▁rose	-2926
▁tomato	-2927
▁law	-2928
anut	-2929
▁excitedly	-2930
▁witch	-2931
▁mem	-2932
ray	-2933
▁delicate	-2934
ines	-2935
▁movie	-2936
▁playful	-2937
▁weal	-2938
▁independent	-2939
▁sauce	-2940
▁roof	-2941
▁seem	-2942
▁brightly	-2943
▁above	-2944
▁hammer	-2945
ola	-2946
corn	-2947
▁Your	-2948
▁rat	-2949
▁Whenever	-2950
▁chose	-2951
▁chir	-2952
▁print	-2953
▁showing	-2954
▁spoiled	-2955
▁dove	-2956
▁lab	-2957
▁cro	-2958
▁reminded	-2959
▁Cl	-2960
na	-2961
arry	-2962
reen	-2963
▁boats	-2964
dom	-2965
▁delighted	-2966
▁whispered	-2967
ither	-2968
known	-2969
▁thoughtful	-2970
▁George	-2971
▁bitter	-2972
▁tank	-2973
▁built	-2974
!".	-2975
▁Bill	-2976
▁shone	-2977
▁perform	-2978
▁kicked	-2979
▁enc	-2980
▁Sn	-2981
rell	-2982
▁jolly	-2983
▁themselves	-2984
▁acorn	-2985
▁cop	-2986
▁sunfl	-2987
▁smaller	-2988
▁rode	-2989
▁dependable	-2990
▁handed	-2991
▁pumpkin	-2992
▁counted	-2993
▁sniff	-2994
▁terrible	-2995
ache	-2996
▁Ducky	-2997
▁unknown	-2998
▁resc	-2999
▁costum	-3000
oot	-3001
ience	-3002
▁marble	-3003
▁finding	-3004
▁solve	-3005
arth	-3006
▁ways	-3007
▁stretch	-3008
▁yet	-3009
▁admired	-3010
▁popcorn	-3011
inal	-3012
▁bushes	-3013
▁spinning	-3014
▁fingers	-3015
▁egg	-3016
▁clock	-3017
iable	-3018
▁guard	-3019
▁orig	-3020
▁practice	-3021
▁Toby	-3022
▁serious	-3023
▁fre	-3024
eeze	-3025
▁peanut	-3026
▁changed	-3027
pid	-3028
▁Joey	-3029
▁Lola	-3030
▁sink	-3031
œYes	-3032
ormous	-3033
▁mis	-3034
▁enormous	-3035
▁clum	-3036
▁tummy	-3037
▁using	-3038
iew	-3039
▁salad	-3040
▁stronger	-3041
▁gasped	-3042
▁allowed	-3043
▁ow	-3044
▁Polly	-3045
oomy	-3046
▁jam	-3047
▁reliable	-3048
▁view	-3049
▁stupid	-3050
▁sleeping	-3051
▁potato	-3052
▁beak	-3053
▁original	-3054
mbrell	-3055
▁those	-3056
▁umbrell	-3057
▁grand	-3058
▁zip	-3059
▁bump	-3060
▁steal	-3061
▁advice	-3062
▁cam	-3063
▁gem	-3064
▁thunder	-3065
▁Andy	-3066
▁bees	-3067
▁cleaning	-3068
inary	-3069
▁beet	-3070
▁magn	-3071
ugged	-3072
▁engine	-3073
▁stamp	-3074
▁thinking	-3075
anger	-3076
▁moder	-3077
▁barber	-3078
▁metal	-3079
▁joined	-3080
▁bounce	-3081
▁picking	-3082
▁painted	-3083
com	-3084
▁doesn	-3085
▁hay	-3086
▁clumsy	-3087
▁desk	-3088
▁library	-3089
▁dust	-3090
▁rub	-3091
▁compass	-3092
How	-3093
▁dolphin	-3094
▁tor	-3095
▁Bear	-3096
▁hairy	-3097
▁patter	-3098
ict	-3099
▁Ba	-3100
robe	-3101
▁loll	-3102
▁truth	-3103
▁searching	-3104
▁twig	-3105
▁leaving	-3106
▁Ro	-3107
▁rushed	-3108
▁ing	-3109
▁stairs	-3110
▁regular	-3111
▁prep	-3112
▁telling	-3113
ipop	-3114
▁half	-3115
▁tele	-3116
emo	-3117
▁wealthy	-3118
▁wire	-3119
uring	-3120
▁shiver	-3121
▁jacket	-3122
▁modern	-3123
▁missing	-3124
▁lollipop	-3125
ebra	-3126
▁tunn	-3127
œWhat	-3128
▁load	-3129
▁forth	-3130
▁Nemo	-3131
▁pattern	-3132
▁ingred	-3133
▁char	-3134
▁ingredient	-3135
▁cheap	-3136
▁comb	-3137
▁gum	-3138
▁pige	-3139
cu	-3140
▁arrow	-3141
▁graceful	-3142
▁opens	-3143
▁holds	-3144
▁crazy	-3145
See	-3146
▁prize	-3147
▁sparkled	-3148
eezed	-3149
▁knock	-3150
amond	-3151
ric	-3152
gu	-3153
▁thirst	-3154
▁bean	-3155
het	-3156
▁sudden	-3157
▁patch	-3158
ilty	-3159
▁washed	-3160
▁diamond	-3161
▁rubb	-3162
▁guilty	-3163
illa	-3164
▁dull	-3165
ations	-3166
▁create	-3167
œIt	-3168
▁fresh	-3169
▁popular	-3170
▁angel	-3171
▁square	-3172
▁Pe	-3173
▁compassion	-3174
▁zebra	-3175
▁Sophie	-3176
▁nature	-3177
▁Next	-3178
▁sadly	-3179
▁dreaming	-3180
▁driving	-3181
▁pebble	-3182
Go	-3183
▁Alex	-3184
▁peeked	-3185
hetti	-3186
▁meal	-3187
▁friendship	-3188
▁pup	-3189
aghetti	-3190
▁Kim	-3191
time	-3192
▁sne	-3193
▁flex	-3194
▁early	-3195
fa	-3196
▁cur	-3197
io	-3198
▁brace	-3199
▁post	-3200
▁reward	-3201
▁wing	-3202
▁careless	-3203
bled	-3204
▁envel	-3205
▁comput	-3206
▁shocked	-3207
▁rubbed	-3208
▁ending	-3209
▁spaghetti	-3210
▁stat	-3211
▁anx	-3212
▁bull	-3213
▁pirate	-3214
▁beetle	-3215
▁avo	-3216
cod	-3217
ief	-3218
shion	-3219
gest	-3220
▁cere	-3221
▁thirsty	-3222
▁imagined	-3223
▁destro	-3224
▁carrying	-3225
▁mailbox	-3226
▁travel	-3227
▁deliver	-3228
ement	-3229
▁stranger	-3230
▁impressive	-3231
œLetâ	-3232
▁yarn	-3233
ibb	-3234
▁rug	-3235
▁enth	-3236
▁umbrella	-3237
▁surf	-3238
▁goose	-3239
▁blueber	-3240
▁ingredients	-3241
▁biggest	-3242
▁butterflies	-3243
▁suit	-3244
▁anxious	-3245
▁fork	-3246
▁trap	-3247
▁reading	-3248
▁tied	-3249
▁object	-3250
ellig	-3251
▁pant	-3252
▁enthus	-3253
▁windows	-3254
▁intellig	-3255
▁pow	-3256
▁flexible	-3257
▁shel	-3258
▁stops	-3259
▁tem	-3260
▁cryst	-3261
▁towers	-3262
▁env	-3263
▁mask	-3264
▁rece	-3265
▁gloomy	-3266
▁jumps	-3267
umbers	-3268
▁super	-3269
▁handle	-3270
▁discover	-3271
loo	-3272
arsh	-3273
▁wheels	-3274
comfort	-3275
▁Paul	-3276
▁compl	-3277
▁crocod	-3278
▁torn	-3279
iches	-3280
▁slides	-3281
▁penny	-3282
▁encou	-3283
▁perm	-3284
▁flashlight	-3285
▁persist	-3286
▁spilled	-3287
▁stage	-3288
▁sorts	-3289
▁uncomfort	-3290
▁camera	-3291
cream	-3292
ision	-3293
▁uncomfortable	-3294
Re	-3295
▁humble	-3296
▁sunflower	-3297
▁mel	-3298
▁placed	-3299
▁growing	-3300
▁cupboard	-3301
▁celebrate	-3302
▁older	-3303
▁complet	-3304
Yay	-3305
isk	-3306
▁Charl	-3307
▁harmless	-3308
ince	-3309
▁deaf	-3310
▁cereal	-3311
▁seeds	-3312
▁spoke	-3313
▁bent	-3314
They	-3315
▁gifted	-3316
There	-3317
▁drawer	-3318
▁pale	-3319
▁beauty	-3320
▁Jerry	-3321
▁er	-3322
▁Un	-3323
▁Here	-3324
▁base	-3325
▁lively	-3326
aches	-3327
▁ahead	-3328
▁trick	-3329
▁numbers	-3330
▁spring	-3331
▁couldnâ	-3332
ikes	-3333
▁carp	-3334
▁refused	-3335
▁order	-3336
▁badly	-3337
▁computer	-3338
▁triang	-3339
▁mush	-3340
▁warned	-3341
▁liz	-3342
Ow	-3343
▁pengu	-3344
▁uncle	-3345
▁charming	-3346
awn	-3347
▁courage	-3348
▁stack	-3349
▁needle	-3350
▁shut	-3351
▁Hen	-3352
▁sandwiches	-3353
▁Give	-3354
▁speed	-3355
▁cooking	-3356
▁sofa	-3357
▁nail	-3358
▁helmet	-3359
▁station	-3360
▁support	-3361
▁leop	-3362
▁Sandy	-3363
opus	-3364
▁vi	-3365
ctopus	-3366
▁flute	-3367
▁scale	-3368
▁pretending	-3369
▁envelope	-3370
heart	-3371
▁mole	-3372
▁earth	-3373
▁names	-3374
▁package	-3375
▁univer	-3376
▁Tweetie	-3377
He	-3378
▁Brownie	-3379
▁scoot	-3380
▁hung	-3381
▁scatter	-3382
▁piano	-3383
ubby	-3384
▁ordinary	-3385
▁intelligent	-3386
▁statue	-3387
▁flour	-3388
ud	-3389
▁bri	-3390
▁rules	-3391
▁octopus	-3392
▁cartoon	-3393
▁Danny	-3394
▁Lilly	-3395
▁destroy	-3396
▁counting	-3397
▁beep	-3398
▁attract	-3399
œThat	-3400
▁twirled	-3401
▁wishes	-3402
▁resist	-3403
▁may	-3404
▁trump	-3405
▁Pat	-3406
▁led	-3407
▁hurry	-3408
▁raven	-3409
▁Mag	-3410
▁Look	-3411
▁value	-3412
▁crystal	-3413
oe	-3414
▁quar	-3415
▁neat	-3416
aid	-3417
▁cricket	-3418
▁collar	-3419
▁carpet	-3420
▁alert	-3421
▁chasing	-3422
▁anywhere	-3423
▁pand	-3424
▁mushroom	-3425
▁sett	-3426
▁snuggled	-3427
▁crocodile	-3428
▁question	-3429
ceed	-3430
▁pigeon	-3431
▁thread	-3432
▁jeep	-3433
▁bounced	-3434
ices	-3435
▁persistent	-3436
gust	-3437
arian	-3438
▁tunnel	-3439
▁curt	-3440
gie	-3441
▁creatures	-3442
▁fireman	-3443
▁phot	-3444
▁leopard	-3445
▁bracelet	-3446
▁vide	-3447
▁Henry	-3448
▁Bet	-3449
▁disgust	-3450
erable	-3451
▁bandage	-3452
▁hunter	-3453
▁helpless	-3454
▁Sh	-3455
▁curtain	-3456
▁Will	-3457
▁shoe	-3458
▁leash	-3459
▁nurse	-3460
▁cards	-3461
aff	-3462
▁miserable	-3463
▁note	-3464
opl	-3465
eropl	-3466
▁shine	-3467
cut	-3468
▁Lee	-3469
▁yawn	-3470
▁trash	-3471
▁dug	-3472
▁thief	-3473
▁lizard	-3474
▁parade	-3475
▁compassionate	-3476
iest	-3477
▁letters	-3478
▁aeropl	-3479
If	-3480
▁attic	-3481
▁fort	-3482
▁send	-3483
▁chubby	-3484
▁shaking	-3485
▁competitive	-3486
▁allig	-3487
▁screen	-3488
opter	-3489
▁ener	-3490
tter	-3491
icopter	-3492
▁second	-3493
▁trumpet	-3494
▁club	-3495
▁chance	-3496
ips	-3497
▁troubled	-3498
▁stirred	-3499
▁mama	-3500
▁camp	-3501
coa	-3502
▁tooth	-3503
▁pasta	-3504
und	-3505
▁helicopter	-3506
▁Grace	-3507
▁soldier	-3508
▁stretched	-3509
▁Before	-3510
▁task	-3511
▁practiced	-3512
aked	-3513
▁impat	-3514
Give	-3515
▁crane	-3516
ses	-3517
ummer	-3518
▁sweetheart	-3519
▁steps	-3520
▁pressed	-3521
▁tur	-3522
▁nobody	-3523
▁repe	-3524
▁attractive	-3525
▁Are	-3526
▁succeed	-3527
host	-3528
▁stickers	-3529
ne	-3530
▁pants	-3531
▁Would	-3532
▁cocoa	-3533
▁jug	-3534
orable	-3535
▁otter	-3536
▁distant	-3537
gging	-3538
▁respectful	-3539
▁poem	-3540
▁monkeys	-3541
▁bicy	-3542
▁muff	-3543
▁seal	-3544
▁impatient	-3545
aurant	-3546
▁bet	-3547
▁Charlie	-3548
▁cube	-3549
▁candle	-3550
orant	-3551
▁tire	-3552
▁pony	-3553
▁giggle	-3554
▁disgusting	-3555
▁restaurant	-3556
▁pepper	-3557
olin	-3558
▁ghost	-3559
stri	-3560
▁pun	-3561
▁dess	-3562
▁firework	-3563
stic	-3564
night	-3565
▁turkey	-3566
▁envious	-3567
▁itself	-3568
imi	-3569
▁restless	-3570
come	-3571
▁raft	-3572
▁radio	-3573
▁brighter	-3574
▁country	-3575
▁Snow	-3576
▁anyway	-3577
▁sandbox	-3578
urb	-3579
▁Annie	-3580
▁adorable	-3581
▁fu	-3582
uct	-3583
▁ribb	-3584
▁squash	-3585
▁filthy	-3586
▁shouts	-3587
▁starts	-3588
noon	-3589
iastic	-3590
▁explain	-3591
▁mule	-3592
▁enthusiastic	-3593
▁afternoon	-3594
▁decorate	-3595
▁ignorant	-3596
▁disturb	-3597
▁tray	-3598
▁barking	-3599
▁ten	-3600
▁lid	-3601
▁Mill	-3602
▁skip	-3603
▁por	-3604
▁soar	-3605
▁Kate	-3606
▁Everything	-3607
▁sweater	-3608
▁harsh	-3609
▁nowhere	-3610
ccol	-3611
▁gir	-3612
▁loop	-3613
▁mill	-3614
▁further	-3615
bul	-3616
▁Jess	-3617
▁obser	-3618
▁screw	-3619
▁repair	-3620
▁tap	-3621
▁hook	-3622
▁belt	-3623
▁alligator	-3624
ccoli	-3625
▁nuts	-3626
▁exper	-3627
▁Bunny	-3628
▁happier	-3629
▁gor	-3630
▁sent	-3631
▁listening	-3632
▁jet	-3633
▁admire	-3634
▁somewhere	-3635
▁Mimi	-3636
▁didnâ	-3637
▁Where	-3638
▁case	-3639
▁ostri	-3640
▁summer	-3641
▁backpack	-3642
▁impro	-3643
▁batht	-3644
▁melon	-3645
▁quite	-3646
▁spell	-3647
▁paid	-3648
▁yogurt	-3649
▁paws	-3650
▁cooked	-3651
▁tax	-3652
▁holes	-3653
▁scooter	-3654
▁mug	-3655
▁violin	-3656
▁bathtub	-3657
▁Ru	-3658
▁cows	-3659
▁lightning	-3660
▁unpack	-3661
▁grabs	-3662
▁sort	-3663
▁pulls	-3664
▁pole	-3665
▁speak	-3666
▁triangle	-3667
nna	-3668
▁Baby	-3669
▁given	-3670
▁fearful	-3671
par	-3672
▁dessert	-3673
▁vine	-3674
▁Red	-3675
▁cact	-3676
stairs	-3677
▁split	-3678
▁bin	-3679
▁Harry	-3680
▁stared	-3681
▁modest	-3682
▁meas	-3683
▁broccoli	-3684
▁comet	-3685
year	-3686
▁separ	-3687
▁roared	-3688
▁sheet	-3689
▁trains	-3690
▁jokes	-3691
▁hipp	-3692
▁ur	-3693
▁waff	-3694
▁forgave	-3695
irit	-3696
▁ants	-3697
hood	-3698
▁sock	-3699
▁Millie	-3700
▁vend	-3701
▁finds	-3702
▁lend	-3703
▁purse	-3704
Bye	-3705
▁Tony	-3706
▁hedge	-3707
▁panda	-3708
▁bicycle	-3709
▁Maggie	-3710
▁tripped	-3711
▁lear	-3712
▁taxi	-3713
▁swinging	-3714
▁learnt	-3715
▁shade	-3716
▁evening	-3717
iron	-3718
▁cactus	-3719
▁quarrel	-3720
▁Sm	-3721
▁ambul	-3722
▁aeroplane	-3723
ucked	-3724
▁pipe	-3725
aroo	-3726
angaroo	-3727
▁frowned	-3728
aled	-3729
œYou	-3730
▁ped	-3731
▁size	-3732
ipping	-3733
▁bur	-3734
ophone	-3735
▁pal	-3736
▁mild	-3737
seum	-3738
▁meat	-3739
▁human	-3740
gn	-3741
▁Maria	-3742
▁breat	-3743
edy	-3744
▁Pap	-3745
▁either	-3746
▁jellyfish	-3747
▁neighbour	-3748
▁Ted	-3749
▁pad	-3750
cycle	-3751
▁haircut	-3752
inking	-3753
▁James	-3754
▁reco	-3755
▁kangaroo	-3756
ffe	-3757
▁boots	-3758
▁shakes	-3759
▁eras	-3760
▁hall	-3761
▁ended	-3762
▁porch	-3763
▁ambulance	-3764
▁organize	-3765
▁pushing	-3766
▁oy	-3767
ooped	-3768
▁gorilla	-3769
▁strugg	-3770
▁drawings	-3771
lcano	-3772
▁Tr	-3773
ffee	-3774
▁pilot	-3775
▁museum	-3776
▁starting	-3777
▁airport	-3778
▁rescue	-3779
▁avoc	-3780
▁energy	-3781
▁scold	-3782
urch	-3783
▁math	-3784
▁vendor	-3785
eer	-3786
▁smells	-3787
▁wheat	-3788
▁clapping	-3789
ci	-3790
▁lions	-3791
▁tricks	-3792
▁spirit	-3793
▁prov	-3794
▁strawberry	-3795
▁bikes	-3796
▁colours	-3797
▁chalk	-3798
▁magnet	-3799
▁riding	-3800
▁five	-3801
▁shopkeeper	-3802
▁ostrich	-3803
▁volcano	-3804
▁rag	-3805
▁sle	-3806
▁fisher	-3807
▁cats	-3808
▁palace	-3809
▁rod	-3810
▁costume	-3811
▁page	-3812
cast	-3813
▁papers	-3814
TMm	-3815
▁luck	-3816
▁shovel	-3817
▁wallet	-3818
▁zoomed	-3819
▁Papa	-3820
▁silver	-3821
▁hippo	-3822
▁message	-3823
▁grapes	-3824
Anna	-3825
iling	-3826
▁brus	-3827
▁sprink	-3828
▁ink	-3829
▁buzz	-3830
reci	-3831
▁knot	-3832
▁ol	-3833
▁bananas	-3834
▁barrel	-3835
▁sticker	-3836
▁laund	-3837
▁visited	-3838
▁laundry	-3839
ube	-3840
aulif	-3841
▁oat	-3842
play	-3843
aulifl	-3844
▁sandcast	-3845
happy	-3846
▁dive	-3847
▁appreci	-3848
▁behave	-3849
astic	-3850
▁micr	-3851
▁cord	-3852
▁coffee	-3853
▁checked	-3854
▁softly	-3855
anic	-3856
▁	-3857
e	-3858
a	-3859
t	-3860
o	-3861
h	-3862
n	-3863
i	-3864
d	-3865
s	-3866
r	-3867
l	-3868
y	-3869
m	-3870
w	-3871
.	-3872
u	-3873
g	-3874
c	-3875
p	-3876
f	-3877
b	-3878
k	-3879
,	-3880
T	-3881
v	-3882
"	-3883
S	-3884
H	-3885
'	-3886
I	-3887
L	-3888
O	-3889
!	-3890
B	-3891
M	-3892
x	-3893
A	-3894
W	-3895
j	-3896
J	-3897
?	-3898
Y	-3899
z	-3900
â	-3901
€	-3902
D	-3903
E	-3904
F	-3905
q	-3906
C	-3907
N	-3908
G	-3909
P	-3910
-	-3911
œ	-3912
R	-3913
K	-3914
:	-3915
3	-3916
V	-3917
Z	-3918
U	-3919
;	-3920
Q	-3921
“	-3922
1	-3923
0	-3924
”	-3925
̃	-3926
2	-3927
X	-3928
5	-3929
4	-3930
¦	-3931
Ã	-3932
©	-3933
9	-3934
`	-3935
8	-3936
/	-3937
6	-3938
7	-3939
$	-3940
)	-3941
(	-3942
Â	-3943
*	-3944
_	-3945
\	-3946
±	-3947
&	-3948
å	-3949
+	-3950
‹	-3951
ç	-3952
́	-3953
Š	-3954
‚	-3955
‰	-3956
¢	-3957
Ž	-3958
¿	-3959
⁄	-3960
ä	-3961
è	-3962
æ	-3963
ˆ	-3964
ï	-3965
[	-3966
]	-3967
»	-3968
¬	-3969
¡	-3970
­	-3971
„	-3972
%	-3973
=	-3974
é	-3975
Œ	-3976
–	-3977
¥	-3978
°	-3979
·	-3980
ã	-3981
†	-3982
‡	-3983
›	-3984
£	-3985
ž	-3986
̄	-3987
̈	-3988
’	-3989
•	-3990
>	-3991
§	-3992
«	-3993
̧	-3994
‘	-3995
